{
  "vocab_size": 909,
  "itos": {
    "0": "START",
    "1": "d1",
    "2": "d10",
    "3": "d100",
    "4": "d1002",
    "5": "d1009",
    "6": "d101",
    "7": "d102",
    "8": "d1024",
    "9": "d1026",
    "10": "d103",
    "11": "d1030",
    "12": "d1036",
    "13": "d104",
    "14": "d1044",
    "15": "d105",
    "16": "d1054",
    "17": "d1055",
    "18": "d1058",
    "19": "d106",
    "20": "d1062",
    "21": "d1069",
    "22": "d107",
    "23": "d1072",
    "24": "d1075",
    "25": "d108",
    "26": "d1088",
    "27": "d109",
    "28": "d1093",
    "29": "d1094",
    "30": "d1098",
    "31": "d11",
    "32": "d110",
    "33": "d111",
    "34": "d112",
    "35": "d1125",
    "36": "d1126",
    "37": "d1128",
    "38": "d113",
    "39": "d114",
    "40": "d115",
    "41": "d1152",
    "42": "d116",
    "43": "d1160",
    "44": "d117",
    "45": "d1172",
    "46": "d118",
    "47": "d119",
    "48": "d1192",
    "49": "d12",
    "50": "d120",
    "51": "d1208",
    "52": "d121",
    "53": "d1216",
    "54": "d122",
    "55": "d1221",
    "56": "d123",
    "57": "d1232",
    "58": "d1234",
    "59": "d124",
    "60": "d1248",
    "61": "d125",
    "62": "d126",
    "63": "d127",
    "64": "d128",
    "65": "d129",
    "66": "d1298",
    "67": "d13",
    "68": "d130",
    "69": "d131",
    "70": "d132",
    "71": "d133",
    "72": "d134",
    "73": "d1344",
    "74": "d135",
    "75": "d1352",
    "76": "d136",
    "77": "d137",
    "78": "d1374",
    "79": "d138",
    "80": "d139",
    "81": "d1392",
    "82": "d14",
    "83": "d140",
    "84": "d141",
    "85": "d142",
    "86": "d143",
    "87": "d144",
    "88": "d145",
    "89": "d1456",
    "90": "d1457",
    "91": "d146",
    "92": "d147",
    "93": "d148",
    "94": "d1488",
    "95": "d149",
    "96": "d15",
    "97": "d150",
    "98": "d151",
    "99": "d1512",
    "100": "d152",
    "101": "d153",
    "102": "d154",
    "103": "d155",
    "104": "d1551",
    "105": "d156",
    "106": "d1560",
    "107": "d157",
    "108": "d158",
    "109": "d159",
    "110": "d16",
    "111": "d160",
    "112": "d1609",
    "113": "d161",
    "114": "d1612",
    "115": "d162",
    "116": "d163",
    "117": "d164",
    "118": "d1640",
    "119": "d165",
    "120": "d166",
    "121": "d1666",
    "122": "d167",
    "123": "d168",
    "124": "d1680",
    "125": "d169",
    "126": "d17",
    "127": "d170",
    "128": "d171",
    "129": "d172",
    "130": "d173",
    "131": "d174",
    "132": "d175",
    "133": "d176",
    "134": "d177",
    "135": "d178",
    "136": "d179",
    "137": "d18",
    "138": "d180",
    "139": "d1804",
    "140": "d181",
    "141": "d1816",
    "142": "d182",
    "143": "d1825",
    "144": "d183",
    "145": "d184",
    "146": "d185",
    "147": "d186",
    "148": "d1869",
    "149": "d187",
    "150": "d188",
    "151": "d189",
    "152": "d1898",
    "153": "d19",
    "154": "d190",
    "155": "d191",
    "156": "d192",
    "157": "d193",
    "158": "d194",
    "159": "d1944",
    "160": "d195",
    "161": "d196",
    "162": "d197",
    "163": "d198",
    "164": "d1984",
    "165": "d199",
    "166": "d2",
    "167": "d20",
    "168": "d200",
    "169": "d201",
    "170": "d202",
    "171": "d203",
    "172": "d204",
    "173": "d205",
    "174": "d206",
    "175": "d207",
    "176": "d208",
    "177": "d209",
    "178": "d21",
    "179": "d210",
    "180": "d2100",
    "181": "d211",
    "182": "d212",
    "183": "d213",
    "184": "d214",
    "185": "d215",
    "186": "d216",
    "187": "d217",
    "188": "d218",
    "189": "d219",
    "190": "d22",
    "191": "d220",
    "192": "d221",
    "193": "d2218",
    "194": "d222",
    "195": "d223",
    "196": "d224",
    "197": "d225",
    "198": "d226",
    "199": "d227",
    "200": "d228",
    "201": "d229",
    "202": "d23",
    "203": "d230",
    "204": "d231",
    "205": "d232",
    "206": "d2325",
    "207": "d233",
    "208": "d234",
    "209": "d2345",
    "210": "d235",
    "211": "d236",
    "212": "d238",
    "213": "d24",
    "214": "d240",
    "215": "d241",
    "216": "d242",
    "217": "d243",
    "218": "d244",
    "219": "d245",
    "220": "d246",
    "221": "d247",
    "222": "d248",
    "223": "d249",
    "224": "d25",
    "225": "d250",
    "226": "d251",
    "227": "d252",
    "228": "d253",
    "229": "d254",
    "230": "d255",
    "231": "d256",
    "232": "d257",
    "233": "d258",
    "234": "d259",
    "235": "d2592",
    "236": "d26",
    "237": "d260",
    "238": "d261",
    "239": "d262",
    "240": "d263",
    "241": "d264",
    "242": "d265",
    "243": "d266",
    "244": "d267",
    "245": "d268",
    "246": "d269",
    "247": "d27",
    "248": "d270",
    "249": "d271",
    "250": "d272",
    "251": "d273",
    "252": "d274",
    "253": "d275",
    "254": "d276",
    "255": "d277",
    "256": "d278",
    "257": "d279",
    "258": "d28",
    "259": "d280",
    "260": "d281",
    "261": "d282",
    "262": "d283",
    "263": "d284",
    "264": "d285",
    "265": "d286",
    "266": "d287",
    "267": "d288",
    "268": "d289",
    "269": "d29",
    "270": "d290",
    "271": "d291",
    "272": "d292",
    "273": "d293",
    "274": "d294",
    "275": "d295",
    "276": "d296",
    "277": "d297",
    "278": "d298",
    "279": "d299",
    "280": "d3",
    "281": "d30",
    "282": "d300",
    "283": "d302",
    "284": "d303",
    "285": "d304",
    "286": "d305",
    "287": "d306",
    "288": "d307",
    "289": "d308",
    "290": "d309",
    "291": "d31",
    "292": "d310",
    "293": "d311",
    "294": "d312",
    "295": "d313",
    "296": "d314",
    "297": "d315",
    "298": "d316",
    "299": "d317",
    "300": "d318",
    "301": "d32",
    "302": "d320",
    "303": "d321",
    "304": "d322",
    "305": "d323",
    "306": "d324",
    "307": "d326",
    "308": "d327",
    "309": "d328",
    "310": "d329",
    "311": "d33",
    "312": "d330",
    "313": "d331",
    "314": "d333",
    "315": "d334",
    "316": "d335",
    "317": "d336",
    "318": "d337",
    "319": "d338",
    "320": "d339",
    "321": "d34",
    "322": "d340",
    "323": "d342",
    "324": "d344",
    "325": "d345",
    "326": "d346",
    "327": "d347",
    "328": "d348",
    "329": "d349",
    "330": "d35",
    "331": "d350",
    "332": "d351",
    "333": "d352",
    "334": "d353",
    "335": "d354",
    "336": "d355",
    "337": "d356",
    "338": "d357",
    "339": "d358",
    "340": "d36",
    "341": "d360",
    "342": "d362",
    "343": "d364",
    "344": "d366",
    "345": "d368",
    "346": "d369",
    "347": "d37",
    "348": "d370",
    "349": "d371",
    "350": "d372",
    "351": "d373",
    "352": "d374",
    "353": "d376",
    "354": "d377",
    "355": "d378",
    "356": "d38",
    "357": "d380",
    "358": "d383",
    "359": "d384",
    "360": "d385",
    "361": "d386",
    "362": "d387",
    "363": "d388",
    "364": "d389",
    "365": "d39",
    "366": "d390",
    "367": "d392",
    "368": "d393",
    "369": "d394",
    "370": "d395",
    "371": "d396",
    "372": "d397",
    "373": "d398",
    "374": "d4",
    "375": "d40",
    "376": "d400",
    "377": "d401",
    "378": "d402",
    "379": "d403",
    "380": "d404",
    "381": "d405",
    "382": "d406",
    "383": "d408",
    "384": "d41",
    "385": "d410",
    "386": "d411",
    "387": "d412",
    "388": "d415",
    "389": "d4155",
    "390": "d416",
    "391": "d418",
    "392": "d42",
    "393": "d420",
    "394": "d422",
    "395": "d424",
    "396": "d426",
    "397": "d428",
    "398": "d429",
    "399": "d43",
    "400": "d430",
    "401": "d431",
    "402": "d432",
    "403": "d433",
    "404": "d434",
    "405": "d436",
    "406": "d437",
    "407": "d438",
    "408": "d439",
    "409": "d44",
    "410": "d440",
    "411": "d442",
    "412": "d444",
    "413": "d445",
    "414": "d448",
    "415": "d449",
    "416": "d45",
    "417": "d450",
    "418": "d451",
    "419": "d452",
    "420": "d454",
    "421": "d456",
    "422": "d457",
    "423": "d458",
    "424": "d459",
    "425": "d46",
    "426": "d460",
    "427": "d461",
    "428": "d464",
    "429": "d465",
    "430": "d466",
    "431": "d468",
    "432": "d47",
    "433": "d471",
    "434": "d472",
    "435": "d473",
    "436": "d474",
    "437": "d478",
    "438": "d48",
    "439": "d480",
    "440": "d482",
    "441": "d484",
    "442": "d485",
    "443": "d486",
    "444": "d488",
    "445": "d49",
    "446": "d491",
    "447": "d492",
    "448": "d495",
    "449": "d496",
    "450": "d498",
    "451": "d5",
    "452": "d50",
    "453": "d500",
    "454": "d501",
    "455": "d502",
    "456": "d503",
    "457": "d504",
    "458": "d505",
    "459": "d506",
    "460": "d509",
    "461": "d51",
    "462": "d513",
    "463": "d514",
    "464": "d516",
    "465": "d517",
    "466": "d518",
    "467": "d519",
    "468": "d52",
    "469": "d520",
    "470": "d522",
    "471": "d523",
    "472": "d524",
    "473": "d528",
    "474": "d53",
    "475": "d530",
    "476": "d532",
    "477": "d535",
    "478": "d538",
    "479": "d539",
    "480": "d54",
    "481": "d540",
    "482": "d543",
    "483": "d544",
    "484": "d545",
    "485": "d546",
    "486": "d548",
    "487": "d55",
    "488": "d550",
    "489": "d552",
    "490": "d556",
    "491": "d56",
    "492": "d560",
    "493": "d563",
    "494": "d564",
    "495": "d568",
    "496": "d57",
    "497": "d572",
    "498": "d575",
    "499": "d576",
    "500": "d577",
    "501": "d578",
    "502": "d58",
    "503": "d580",
    "504": "d584",
    "505": "d586",
    "506": "d588",
    "507": "d59",
    "508": "d592",
    "509": "d594",
    "510": "d595",
    "511": "d598",
    "512": "d6",
    "513": "d60",
    "514": "d600",
    "515": "d601",
    "516": "d604",
    "517": "d606",
    "518": "d608",
    "519": "d609",
    "520": "d61",
    "521": "d610",
    "522": "d612",
    "523": "d613",
    "524": "d616",
    "525": "d618",
    "526": "d62",
    "527": "d624",
    "528": "d625",
    "529": "d626",
    "530": "d627",
    "531": "d629",
    "532": "d63",
    "533": "d630",
    "534": "d631",
    "535": "d632",
    "536": "d634",
    "537": "d639",
    "538": "d64",
    "539": "d640",
    "540": "d641",
    "541": "d642",
    "542": "d644",
    "543": "d648",
    "544": "d65",
    "545": "d656",
    "546": "d657",
    "547": "d658",
    "548": "d66",
    "549": "d661",
    "550": "d662",
    "551": "d664",
    "552": "d667",
    "553": "d67",
    "554": "d671",
    "555": "d672",
    "556": "d673",
    "557": "d674",
    "558": "d68",
    "559": "d687",
    "560": "d688",
    "561": "d69",
    "562": "d691",
    "563": "d695",
    "564": "d696",
    "565": "d698",
    "566": "d7",
    "567": "d70",
    "568": "d704",
    "569": "d707",
    "570": "d708",
    "571": "d709",
    "572": "d71",
    "573": "d72",
    "574": "d720",
    "575": "d725",
    "576": "d73",
    "577": "d736",
    "578": "d74",
    "579": "d75",
    "580": "d752",
    "581": "d753",
    "582": "d758",
    "583": "d76",
    "584": "d765",
    "585": "d768",
    "586": "d769",
    "587": "d77",
    "588": "d78",
    "589": "d780",
    "590": "d781",
    "591": "d783",
    "592": "d784",
    "593": "d788",
    "594": "d79",
    "595": "d8",
    "596": "d80",
    "597": "d802",
    "598": "d809",
    "599": "d81",
    "600": "d815",
    "601": "d816",
    "602": "d82",
    "603": "d83",
    "604": "d832",
    "605": "d834",
    "606": "d838",
    "607": "d84",
    "608": "d840",
    "609": "d842",
    "610": "d844",
    "611": "d85",
    "612": "d86",
    "613": "d864",
    "614": "d87",
    "615": "d872",
    "616": "d876",
    "617": "d88",
    "618": "d888",
    "619": "d89",
    "620": "d890",
    "621": "d895",
    "622": "d898",
    "623": "d9",
    "624": "d90",
    "625": "d902",
    "626": "d903",
    "627": "d904",
    "628": "d91",
    "629": "d912",
    "630": "d92",
    "631": "d921",
    "632": "d928",
    "633": "d93",
    "634": "d930",
    "635": "d934",
    "636": "d935",
    "637": "d94",
    "638": "d942",
    "639": "d944",
    "640": "d95",
    "641": "d952",
    "642": "d954",
    "643": "d96",
    "644": "d961",
    "645": "d964",
    "646": "d966",
    "647": "d968",
    "648": "d97",
    "649": "d98",
    "650": "d99",
    "651": "d998",
    "652": "n0",
    "653": "n1",
    "654": "n10",
    "655": "n100",
    "656": "n101",
    "657": "n102",
    "658": "n103",
    "659": "n104",
    "660": "n105",
    "661": "n106",
    "662": "n107",
    "663": "n108",
    "664": "n109",
    "665": "n11",
    "666": "n110",
    "667": "n111",
    "668": "n112",
    "669": "n113",
    "670": "n114",
    "671": "n115",
    "672": "n116",
    "673": "n117",
    "674": "n118",
    "675": "n119",
    "676": "n12",
    "677": "n120",
    "678": "n121",
    "679": "n122",
    "680": "n123",
    "681": "n124",
    "682": "n125",
    "683": "n126",
    "684": "n127",
    "685": "n13",
    "686": "n14",
    "687": "n15",
    "688": "n16",
    "689": "n17",
    "690": "n18",
    "691": "n19",
    "692": "n2",
    "693": "n20",
    "694": "n21",
    "695": "n22",
    "696": "n23",
    "697": "n24",
    "698": "n25",
    "699": "n26",
    "700": "n27",
    "701": "n28",
    "702": "n29",
    "703": "n3",
    "704": "n30",
    "705": "n31",
    "706": "n32",
    "707": "n33",
    "708": "n34",
    "709": "n35",
    "710": "n36",
    "711": "n37",
    "712": "n38",
    "713": "n39",
    "714": "n4",
    "715": "n40",
    "716": "n41",
    "717": "n42",
    "718": "n43",
    "719": "n44",
    "720": "n45",
    "721": "n46",
    "722": "n47",
    "723": "n48",
    "724": "n49",
    "725": "n5",
    "726": "n50",
    "727": "n51",
    "728": "n52",
    "729": "n53",
    "730": "n54",
    "731": "n55",
    "732": "n56",
    "733": "n57",
    "734": "n58",
    "735": "n59",
    "736": "n6",
    "737": "n60",
    "738": "n61",
    "739": "n62",
    "740": "n63",
    "741": "n64",
    "742": "n65",
    "743": "n66",
    "744": "n67",
    "745": "n68",
    "746": "n69",
    "747": "n7",
    "748": "n70",
    "749": "n71",
    "750": "n72",
    "751": "n73",
    "752": "n74",
    "753": "n75",
    "754": "n76",
    "755": "n77",
    "756": "n78",
    "757": "n79",
    "758": "n8",
    "759": "n80",
    "760": "n81",
    "761": "n82",
    "762": "n83",
    "763": "n84",
    "764": "n85",
    "765": "n86",
    "766": "n87",
    "767": "n88",
    "768": "n89",
    "769": "n9",
    "770": "n90",
    "771": "n91",
    "772": "n92",
    "773": "n93",
    "774": "n94",
    "775": "n95",
    "776": "n96",
    "777": "n97",
    "778": "n98",
    "779": "n99",
    "780": "sepxx",
    "781": "v0",
    "782": "v1",
    "783": "v10",
    "784": "v100",
    "785": "v101",
    "786": "v102",
    "787": "v103",
    "788": "v104",
    "789": "v105",
    "790": "v106",
    "791": "v107",
    "792": "v108",
    "793": "v109",
    "794": "v11",
    "795": "v110",
    "796": "v111",
    "797": "v112",
    "798": "v113",
    "799": "v114",
    "800": "v115",
    "801": "v116",
    "802": "v117",
    "803": "v118",
    "804": "v119",
    "805": "v12",
    "806": "v120",
    "807": "v121",
    "808": "v122",
    "809": "v123",
    "810": "v124",
    "811": "v125",
    "812": "v126",
    "813": "v127",
    "814": "v13",
    "815": "v14",
    "816": "v15",
    "817": "v16",
    "818": "v17",
    "819": "v18",
    "820": "v19",
    "821": "v2",
    "822": "v20",
    "823": "v21",
    "824": "v22",
    "825": "v23",
    "826": "v24",
    "827": "v25",
    "828": "v26",
    "829": "v27",
    "830": "v28",
    "831": "v29",
    "832": "v3",
    "833": "v30",
    "834": "v31",
    "835": "v32",
    "836": "v33",
    "837": "v34",
    "838": "v35",
    "839": "v36",
    "840": "v37",
    "841": "v38",
    "842": "v39",
    "843": "v4",
    "844": "v40",
    "845": "v41",
    "846": "v42",
    "847": "v43",
    "848": "v44",
    "849": "v45",
    "850": "v46",
    "851": "v47",
    "852": "v48",
    "853": "v49",
    "854": "v5",
    "855": "v50",
    "856": "v51",
    "857": "v52",
    "858": "v53",
    "859": "v54",
    "860": "v55",
    "861": "v56",
    "862": "v57",
    "863": "v58",
    "864": "v59",
    "865": "v6",
    "866": "v60",
    "867": "v61",
    "868": "v62",
    "869": "v63",
    "870": "v64",
    "871": "v65",
    "872": "v66",
    "873": "v67",
    "874": "v68",
    "875": "v69",
    "876": "v7",
    "877": "v70",
    "878": "v71",
    "879": "v72",
    "880": "v73",
    "881": "v74",
    "882": "v75",
    "883": "v76",
    "884": "v77",
    "885": "v78",
    "886": "v79",
    "887": "v8",
    "888": "v80",
    "889": "v81",
    "890": "v82",
    "891": "v83",
    "892": "v84",
    "893": "v85",
    "894": "v86",
    "895": "v87",
    "896": "v88",
    "897": "v89",
    "898": "v9",
    "899": "v90",
    "900": "v91",
    "901": "v92",
    "902": "v93",
    "903": "v94",
    "904": "v95",
    "905": "v96",
    "906": "v97",
    "907": "v98",
    "908": "v99",
    "909": "[PAD]"
  },
  "stoi": {
    "START": 0,
    "d1": 1,
    "d10": 2,
    "d100": 3,
    "d1002": 4,
    "d1009": 5,
    "d101": 6,
    "d102": 7,
    "d1024": 8,
    "d1026": 9,
    "d103": 10,
    "d1030": 11,
    "d1036": 12,
    "d104": 13,
    "d1044": 14,
    "d105": 15,
    "d1054": 16,
    "d1055": 17,
    "d1058": 18,
    "d106": 19,
    "d1062": 20,
    "d1069": 21,
    "d107": 22,
    "d1072": 23,
    "d1075": 24,
    "d108": 25,
    "d1088": 26,
    "d109": 27,
    "d1093": 28,
    "d1094": 29,
    "d1098": 30,
    "d11": 31,
    "d110": 32,
    "d111": 33,
    "d112": 34,
    "d1125": 35,
    "d1126": 36,
    "d1128": 37,
    "d113": 38,
    "d114": 39,
    "d115": 40,
    "d1152": 41,
    "d116": 42,
    "d1160": 43,
    "d117": 44,
    "d1172": 45,
    "d118": 46,
    "d119": 47,
    "d1192": 48,
    "d12": 49,
    "d120": 50,
    "d1208": 51,
    "d121": 52,
    "d1216": 53,
    "d122": 54,
    "d1221": 55,
    "d123": 56,
    "d1232": 57,
    "d1234": 58,
    "d124": 59,
    "d1248": 60,
    "d125": 61,
    "d126": 62,
    "d127": 63,
    "d128": 64,
    "d129": 65,
    "d1298": 66,
    "d13": 67,
    "d130": 68,
    "d131": 69,
    "d132": 70,
    "d133": 71,
    "d134": 72,
    "d1344": 73,
    "d135": 74,
    "d1352": 75,
    "d136": 76,
    "d137": 77,
    "d1374": 78,
    "d138": 79,
    "d139": 80,
    "d1392": 81,
    "d14": 82,
    "d140": 83,
    "d141": 84,
    "d142": 85,
    "d143": 86,
    "d144": 87,
    "d145": 88,
    "d1456": 89,
    "d1457": 90,
    "d146": 91,
    "d147": 92,
    "d148": 93,
    "d1488": 94,
    "d149": 95,
    "d15": 96,
    "d150": 97,
    "d151": 98,
    "d1512": 99,
    "d152": 100,
    "d153": 101,
    "d154": 102,
    "d155": 103,
    "d1551": 104,
    "d156": 105,
    "d1560": 106,
    "d157": 107,
    "d158": 108,
    "d159": 109,
    "d16": 110,
    "d160": 111,
    "d1609": 112,
    "d161": 113,
    "d1612": 114,
    "d162": 115,
    "d163": 116,
    "d164": 117,
    "d1640": 118,
    "d165": 119,
    "d166": 120,
    "d1666": 121,
    "d167": 122,
    "d168": 123,
    "d1680": 124,
    "d169": 125,
    "d17": 126,
    "d170": 127,
    "d171": 128,
    "d172": 129,
    "d173": 130,
    "d174": 131,
    "d175": 132,
    "d176": 133,
    "d177": 134,
    "d178": 135,
    "d179": 136,
    "d18": 137,
    "d180": 138,
    "d1804": 139,
    "d181": 140,
    "d1816": 141,
    "d182": 142,
    "d1825": 143,
    "d183": 144,
    "d184": 145,
    "d185": 146,
    "d186": 147,
    "d1869": 148,
    "d187": 149,
    "d188": 150,
    "d189": 151,
    "d1898": 152,
    "d19": 153,
    "d190": 154,
    "d191": 155,
    "d192": 156,
    "d193": 157,
    "d194": 158,
    "d1944": 159,
    "d195": 160,
    "d196": 161,
    "d197": 162,
    "d198": 163,
    "d1984": 164,
    "d199": 165,
    "d2": 166,
    "d20": 167,
    "d200": 168,
    "d201": 169,
    "d202": 170,
    "d203": 171,
    "d204": 172,
    "d205": 173,
    "d206": 174,
    "d207": 175,
    "d208": 176,
    "d209": 177,
    "d21": 178,
    "d210": 179,
    "d2100": 180,
    "d211": 181,
    "d212": 182,
    "d213": 183,
    "d214": 184,
    "d215": 185,
    "d216": 186,
    "d217": 187,
    "d218": 188,
    "d219": 189,
    "d22": 190,
    "d220": 191,
    "d221": 192,
    "d2218": 193,
    "d222": 194,
    "d223": 195,
    "d224": 196,
    "d225": 197,
    "d226": 198,
    "d227": 199,
    "d228": 200,
    "d229": 201,
    "d23": 202,
    "d230": 203,
    "d231": 204,
    "d232": 205,
    "d2325": 206,
    "d233": 207,
    "d234": 208,
    "d2345": 209,
    "d235": 210,
    "d236": 211,
    "d238": 212,
    "d24": 213,
    "d240": 214,
    "d241": 215,
    "d242": 216,
    "d243": 217,
    "d244": 218,
    "d245": 219,
    "d246": 220,
    "d247": 221,
    "d248": 222,
    "d249": 223,
    "d25": 224,
    "d250": 225,
    "d251": 226,
    "d252": 227,
    "d253": 228,
    "d254": 229,
    "d255": 230,
    "d256": 231,
    "d257": 232,
    "d258": 233,
    "d259": 234,
    "d2592": 235,
    "d26": 236,
    "d260": 237,
    "d261": 238,
    "d262": 239,
    "d263": 240,
    "d264": 241,
    "d265": 242,
    "d266": 243,
    "d267": 244,
    "d268": 245,
    "d269": 246,
    "d27": 247,
    "d270": 248,
    "d271": 249,
    "d272": 250,
    "d273": 251,
    "d274": 252,
    "d275": 253,
    "d276": 254,
    "d277": 255,
    "d278": 256,
    "d279": 257,
    "d28": 258,
    "d280": 259,
    "d281": 260,
    "d282": 261,
    "d283": 262,
    "d284": 263,
    "d285": 264,
    "d286": 265,
    "d287": 266,
    "d288": 267,
    "d289": 268,
    "d29": 269,
    "d290": 270,
    "d291": 271,
    "d292": 272,
    "d293": 273,
    "d294": 274,
    "d295": 275,
    "d296": 276,
    "d297": 277,
    "d298": 278,
    "d299": 279,
    "d3": 280,
    "d30": 281,
    "d300": 282,
    "d302": 283,
    "d303": 284,
    "d304": 285,
    "d305": 286,
    "d306": 287,
    "d307": 288,
    "d308": 289,
    "d309": 290,
    "d31": 291,
    "d310": 292,
    "d311": 293,
    "d312": 294,
    "d313": 295,
    "d314": 296,
    "d315": 297,
    "d316": 298,
    "d317": 299,
    "d318": 300,
    "d32": 301,
    "d320": 302,
    "d321": 303,
    "d322": 304,
    "d323": 305,
    "d324": 306,
    "d326": 307,
    "d327": 308,
    "d328": 309,
    "d329": 310,
    "d33": 311,
    "d330": 312,
    "d331": 313,
    "d333": 314,
    "d334": 315,
    "d335": 316,
    "d336": 317,
    "d337": 318,
    "d338": 319,
    "d339": 320,
    "d34": 321,
    "d340": 322,
    "d342": 323,
    "d344": 324,
    "d345": 325,
    "d346": 326,
    "d347": 327,
    "d348": 328,
    "d349": 329,
    "d35": 330,
    "d350": 331,
    "d351": 332,
    "d352": 333,
    "d353": 334,
    "d354": 335,
    "d355": 336,
    "d356": 337,
    "d357": 338,
    "d358": 339,
    "d36": 340,
    "d360": 341,
    "d362": 342,
    "d364": 343,
    "d366": 344,
    "d368": 345,
    "d369": 346,
    "d37": 347,
    "d370": 348,
    "d371": 349,
    "d372": 350,
    "d373": 351,
    "d374": 352,
    "d376": 353,
    "d377": 354,
    "d378": 355,
    "d38": 356,
    "d380": 357,
    "d383": 358,
    "d384": 359,
    "d385": 360,
    "d386": 361,
    "d387": 362,
    "d388": 363,
    "d389": 364,
    "d39": 365,
    "d390": 366,
    "d392": 367,
    "d393": 368,
    "d394": 369,
    "d395": 370,
    "d396": 371,
    "d397": 372,
    "d398": 373,
    "d4": 374,
    "d40": 375,
    "d400": 376,
    "d401": 377,
    "d402": 378,
    "d403": 379,
    "d404": 380,
    "d405": 381,
    "d406": 382,
    "d408": 383,
    "d41": 384,
    "d410": 385,
    "d411": 386,
    "d412": 387,
    "d415": 388,
    "d4155": 389,
    "d416": 390,
    "d418": 391,
    "d42": 392,
    "d420": 393,
    "d422": 394,
    "d424": 395,
    "d426": 396,
    "d428": 397,
    "d429": 398,
    "d43": 399,
    "d430": 400,
    "d431": 401,
    "d432": 402,
    "d433": 403,
    "d434": 404,
    "d436": 405,
    "d437": 406,
    "d438": 407,
    "d439": 408,
    "d44": 409,
    "d440": 410,
    "d442": 411,
    "d444": 412,
    "d445": 413,
    "d448": 414,
    "d449": 415,
    "d45": 416,
    "d450": 417,
    "d451": 418,
    "d452": 419,
    "d454": 420,
    "d456": 421,
    "d457": 422,
    "d458": 423,
    "d459": 424,
    "d46": 425,
    "d460": 426,
    "d461": 427,
    "d464": 428,
    "d465": 429,
    "d466": 430,
    "d468": 431,
    "d47": 432,
    "d471": 433,
    "d472": 434,
    "d473": 435,
    "d474": 436,
    "d478": 437,
    "d48": 438,
    "d480": 439,
    "d482": 440,
    "d484": 441,
    "d485": 442,
    "d486": 443,
    "d488": 444,
    "d49": 445,
    "d491": 446,
    "d492": 447,
    "d495": 448,
    "d496": 449,
    "d498": 450,
    "d5": 451,
    "d50": 452,
    "d500": 453,
    "d501": 454,
    "d502": 455,
    "d503": 456,
    "d504": 457,
    "d505": 458,
    "d506": 459,
    "d509": 460,
    "d51": 461,
    "d513": 462,
    "d514": 463,
    "d516": 464,
    "d517": 465,
    "d518": 466,
    "d519": 467,
    "d52": 468,
    "d520": 469,
    "d522": 470,
    "d523": 471,
    "d524": 472,
    "d528": 473,
    "d53": 474,
    "d530": 475,
    "d532": 476,
    "d535": 477,
    "d538": 478,
    "d539": 479,
    "d54": 480,
    "d540": 481,
    "d543": 482,
    "d544": 483,
    "d545": 484,
    "d546": 485,
    "d548": 486,
    "d55": 487,
    "d550": 488,
    "d552": 489,
    "d556": 490,
    "d56": 491,
    "d560": 492,
    "d563": 493,
    "d564": 494,
    "d568": 495,
    "d57": 496,
    "d572": 497,
    "d575": 498,
    "d576": 499,
    "d577": 500,
    "d578": 501,
    "d58": 502,
    "d580": 503,
    "d584": 504,
    "d586": 505,
    "d588": 506,
    "d59": 507,
    "d592": 508,
    "d594": 509,
    "d595": 510,
    "d598": 511,
    "d6": 512,
    "d60": 513,
    "d600": 514,
    "d601": 515,
    "d604": 516,
    "d606": 517,
    "d608": 518,
    "d609": 519,
    "d61": 520,
    "d610": 521,
    "d612": 522,
    "d613": 523,
    "d616": 524,
    "d618": 525,
    "d62": 526,
    "d624": 527,
    "d625": 528,
    "d626": 529,
    "d627": 530,
    "d629": 531,
    "d63": 532,
    "d630": 533,
    "d631": 534,
    "d632": 535,
    "d634": 536,
    "d639": 537,
    "d64": 538,
    "d640": 539,
    "d641": 540,
    "d642": 541,
    "d644": 542,
    "d648": 543,
    "d65": 544,
    "d656": 545,
    "d657": 546,
    "d658": 547,
    "d66": 548,
    "d661": 549,
    "d662": 550,
    "d664": 551,
    "d667": 552,
    "d67": 553,
    "d671": 554,
    "d672": 555,
    "d673": 556,
    "d674": 557,
    "d68": 558,
    "d687": 559,
    "d688": 560,
    "d69": 561,
    "d691": 562,
    "d695": 563,
    "d696": 564,
    "d698": 565,
    "d7": 566,
    "d70": 567,
    "d704": 568,
    "d707": 569,
    "d708": 570,
    "d709": 571,
    "d71": 572,
    "d72": 573,
    "d720": 574,
    "d725": 575,
    "d73": 576,
    "d736": 577,
    "d74": 578,
    "d75": 579,
    "d752": 580,
    "d753": 581,
    "d758": 582,
    "d76": 583,
    "d765": 584,
    "d768": 585,
    "d769": 586,
    "d77": 587,
    "d78": 588,
    "d780": 589,
    "d781": 590,
    "d783": 591,
    "d784": 592,
    "d788": 593,
    "d79": 594,
    "d8": 595,
    "d80": 596,
    "d802": 597,
    "d809": 598,
    "d81": 599,
    "d815": 600,
    "d816": 601,
    "d82": 602,
    "d83": 603,
    "d832": 604,
    "d834": 605,
    "d838": 606,
    "d84": 607,
    "d840": 608,
    "d842": 609,
    "d844": 610,
    "d85": 611,
    "d86": 612,
    "d864": 613,
    "d87": 614,
    "d872": 615,
    "d876": 616,
    "d88": 617,
    "d888": 618,
    "d89": 619,
    "d890": 620,
    "d895": 621,
    "d898": 622,
    "d9": 623,
    "d90": 624,
    "d902": 625,
    "d903": 626,
    "d904": 627,
    "d91": 628,
    "d912": 629,
    "d92": 630,
    "d921": 631,
    "d928": 632,
    "d93": 633,
    "d930": 634,
    "d934": 635,
    "d935": 636,
    "d94": 637,
    "d942": 638,
    "d944": 639,
    "d95": 640,
    "d952": 641,
    "d954": 642,
    "d96": 643,
    "d961": 644,
    "d964": 645,
    "d966": 646,
    "d968": 647,
    "d97": 648,
    "d98": 649,
    "d99": 650,
    "d998": 651,
    "n0": 652,
    "n1": 653,
    "n10": 654,
    "n100": 655,
    "n101": 656,
    "n102": 657,
    "n103": 658,
    "n104": 659,
    "n105": 660,
    "n106": 661,
    "n107": 662,
    "n108": 663,
    "n109": 664,
    "n11": 665,
    "n110": 666,
    "n111": 667,
    "n112": 668,
    "n113": 669,
    "n114": 670,
    "n115": 671,
    "n116": 672,
    "n117": 673,
    "n118": 674,
    "n119": 675,
    "n12": 676,
    "n120": 677,
    "n121": 678,
    "n122": 679,
    "n123": 680,
    "n124": 681,
    "n125": 682,
    "n126": 683,
    "n127": 684,
    "n13": 685,
    "n14": 686,
    "n15": 687,
    "n16": 688,
    "n17": 689,
    "n18": 690,
    "n19": 691,
    "n2": 692,
    "n20": 693,
    "n21": 694,
    "n22": 695,
    "n23": 696,
    "n24": 697,
    "n25": 698,
    "n26": 699,
    "n27": 700,
    "n28": 701,
    "n29": 702,
    "n3": 703,
    "n30": 704,
    "n31": 705,
    "n32": 706,
    "n33": 707,
    "n34": 708,
    "n35": 709,
    "n36": 710,
    "n37": 711,
    "n38": 712,
    "n39": 713,
    "n4": 714,
    "n40": 715,
    "n41": 716,
    "n42": 717,
    "n43": 718,
    "n44": 719,
    "n45": 720,
    "n46": 721,
    "n47": 722,
    "n48": 723,
    "n49": 724,
    "n5": 725,
    "n50": 726,
    "n51": 727,
    "n52": 728,
    "n53": 729,
    "n54": 730,
    "n55": 731,
    "n56": 732,
    "n57": 733,
    "n58": 734,
    "n59": 735,
    "n6": 736,
    "n60": 737,
    "n61": 738,
    "n62": 739,
    "n63": 740,
    "n64": 741,
    "n65": 742,
    "n66": 743,
    "n67": 744,
    "n68": 745,
    "n69": 746,
    "n7": 747,
    "n70": 748,
    "n71": 749,
    "n72": 750,
    "n73": 751,
    "n74": 752,
    "n75": 753,
    "n76": 754,
    "n77": 755,
    "n78": 756,
    "n79": 757,
    "n8": 758,
    "n80": 759,
    "n81": 760,
    "n82": 761,
    "n83": 762,
    "n84": 763,
    "n85": 764,
    "n86": 765,
    "n87": 766,
    "n88": 767,
    "n89": 768,
    "n9": 769,
    "n90": 770,
    "n91": 771,
    "n92": 772,
    "n93": 773,
    "n94": 774,
    "n95": 775,
    "n96": 776,
    "n97": 777,
    "n98": 778,
    "n99": 779,
    "sepxx": 780,
    "v0": 781,
    "v1": 782,
    "v10": 783,
    "v100": 784,
    "v101": 785,
    "v102": 786,
    "v103": 787,
    "v104": 788,
    "v105": 789,
    "v106": 790,
    "v107": 791,
    "v108": 792,
    "v109": 793,
    "v11": 794,
    "v110": 795,
    "v111": 796,
    "v112": 797,
    "v113": 798,
    "v114": 799,
    "v115": 800,
    "v116": 801,
    "v117": 802,
    "v118": 803,
    "v119": 804,
    "v12": 805,
    "v120": 806,
    "v121": 807,
    "v122": 808,
    "v123": 809,
    "v124": 810,
    "v125": 811,
    "v126": 812,
    "v127": 813,
    "v13": 814,
    "v14": 815,
    "v15": 816,
    "v16": 817,
    "v17": 818,
    "v18": 819,
    "v19": 820,
    "v2": 821,
    "v20": 822,
    "v21": 823,
    "v22": 824,
    "v23": 825,
    "v24": 826,
    "v25": 827,
    "v26": 828,
    "v27": 829,
    "v28": 830,
    "v29": 831,
    "v3": 832,
    "v30": 833,
    "v31": 834,
    "v32": 835,
    "v33": 836,
    "v34": 837,
    "v35": 838,
    "v36": 839,
    "v37": 840,
    "v38": 841,
    "v39": 842,
    "v4": 843,
    "v40": 844,
    "v41": 845,
    "v42": 846,
    "v43": 847,
    "v44": 848,
    "v45": 849,
    "v46": 850,
    "v47": 851,
    "v48": 852,
    "v49": 853,
    "v5": 854,
    "v50": 855,
    "v51": 856,
    "v52": 857,
    "v53": 858,
    "v54": 859,
    "v55": 860,
    "v56": 861,
    "v57": 862,
    "v58": 863,
    "v59": 864,
    "v6": 865,
    "v60": 866,
    "v61": 867,
    "v62": 868,
    "v63": 869,
    "v64": 870,
    "v65": 871,
    "v66": 872,
    "v67": 873,
    "v68": 874,
    "v69": 875,
    "v7": 876,
    "v70": 877,
    "v71": 878,
    "v72": 879,
    "v73": 880,
    "v74": 881,
    "v75": 882,
    "v76": 883,
    "v77": 884,
    "v78": 885,
    "v79": 886,
    "v8": 887,
    "v80": 888,
    "v81": 889,
    "v82": 890,
    "v83": 891,
    "v84": 892,
    "v85": 893,
    "v86": 894,
    "v87": 895,
    "v88": 896,
    "v89": 897,
    "v9": 898,
    "v90": 899,
    "v91": 900,
    "v92": 901,
    "v93": 902,
    "v94": 903,
    "v95": 904,
    "v96": 905,
    "v97": 906,
    "v98": 907,
    "v99": 908,
    "[PAD]": 909
  }
}